// conv1d weights int8 [8][3][40] flattened oc-major (train_np.py speech_commands_v2 float=0.8461 int8=0.8538 seed=1)
07
e9
17
ef
13
2d
0b
0f
01
fe
f5
04
e5
f3
05
02
fa
f8
03
03
0f
ff
ff
fe
fc
f3
f1
08
f8
ea
f7
04
ff
07
04
17
09
00
ff
0b
f5
e7
19
e9
f1
fc
ef
e2
f5
f1
01
f4
0a
ff
09
14
03
10
06
10
f3
f9
f6
f9
fa
09
f7
f5
fa
16
13
05
04
06
fb
fb
01
f9
ff
f3
17
f1
21
e0
17
08
02
ff
09
0e
02
01
f3
00
f1
f7
00
fa
e9
07
03
fb
08
05
05
fc
02
fd
0c
fa
f7
01
f7
f7
f7
03
fd
05
00
0f
f5
17
1f
1a
3c
19
f7
e7
eb
16
fd
c6
dd
0e
16
f3
f6
f6
09
03
ff
f2
ff
08
00
fd
ff
fb
03
f5
05
f9
ff
02
fc
09
fd
fb
02
03
f9
0f
1c
0f
0e
1e
18
cb
e4
ff
0c
f7
e6
ee
0d
16
02
fb
02
0a
fd
fd
fc
00
fa
ff
00
f5
fd
fd
ff
02
fa
f8
fc
01
f8
06
fe
fd
15
31
f1
0e
e3
09
ff
de
e6
ea
07
1f
f3
d9
ec
1b
03
ff
ec
fd
02
ff
05
f3
04
0a
08
07
01
07
0a
ff
06
02
08
fc
01
fe
05
fd
0c
12
10
06
dd
eb
19
ef
dd
fd
f8
04
fd
fb
0e
05
07
ef
08
06
ef
0b
fc
eb
fa
03
04
f8
00
ff
fb
fc
fe
ff
05
fd
f9
f6
0c
fb
04
24
1c
ee
cc
15
10
e5
f5
fd
10
03
01
f6
00
00
ff
05
0b
f5
05
05
04
f7
03
f7
f8
f9
02
f3
fc
f7
03
ff
0a
f8
03
04
fc
f8
e8
27
2b
e5
e2
2d
0a
ee
ee
f8
03
00
f6
11
ff
0b
ff
05
ed
07
f5
00
09
06
fc
06
f6
f4
08
0f
ff
fa
fc
fe
06
0c
10
fb
fc
fe
01
08
ef
f1
48
11
e1
06
11
14
f3
e8
f0
17
ff
02
fe
09
f5
05
00
f9
fe
05
03
fe
f7
f8
f5
00
01
05
03
03
04
03
fe
08
07
01
e0
ef
20
eb
f8
11
e8
0e
0e
09
ed
f3
11
ff
fd
fc
ff
0f
fe
fd
fb
fd
03
05
fd
01
ff
01
00
03
f7
03
fd
04
fe
fd
fe
f7
f9
08
e6
c4
49
fd
0e
01
e2
0c
13
00
ea
17
03
0d
e9
09
10
fe
f4
10
0b
0a
04
03
02
0f
fa
0e
fd
06
ff
f8
f9
03
f2
08
04
00
fe
00
0b
05
c1
3a
22
f2
e9
e6
1c
0a
db
ed
f2
fe
f8
fd
13
f6
04
ff
fb
01
01
f3
f8
03
ee
0b
01
06
fe
08
00
f5
f2
07
fd
0e
fe
00
fe
f8
f8
26
0f
f9
e4
03
02
f9
0c
08
04
05
f4
12
ff
f8
00
09
0b
08
02
04
02
fd
02
f4
fe
09
fd
09
0c
fb
f5
fb
02
f6
ff
f9
cc
0e
54
1f
fb
e2
f7
06
e2
df
06
0c
13
f0
fe
f3
f1
00
fe
05
06
f1
0d
ff
0c
fc
05
fd
fd
ef
01
f8
fa
04
0a
01
f1
03
08
fe
c6
1e
18
b1
36
7f
19
f3
04
e7
eb
d6
f2
f8
0a
f8
08
04
09
02
fd
f7
f8
f1
fb
00
04
02
00
04
06
f9
07
04
01
ff
03
00
05
ff
f7
fe
0d
12
f5
09
08
e9
fa
07
f0
f4
ec
f6
0f
16
02
0d
04
04
fe
0c
0b
fa
0d
05
eb
f5
fd
fb
fb
ff
00
fc
ff
ff
08
fa
f8
01
f0
05
0d
51
cf
c9
fb
d6
c4
05
23
29
fd
ff
f4
03
f7
e3
f4
08
fe
f4
03
ff
f4
05
08
fb
00
02
f5
02
f8
fe
fc
07
f1
03
08
fb
18
51
1a
2e
b3
d6
1a
c0
ba
e3
1a
22
f3
f1
f5
15
fe
f8
f7
00
f9
f5
f8
05
fb
09
fd
05
03
f4
0a
fd
04
ff
fa
05
fc
02
fe
03
ef
01
0a
fc
0f
24
0a
fe
e8
03
19
f8
e7
e6
05
f9
fe
fb
f8
0a
f5
09
02
fd
fe
f5
fd
fd
f5
03
f5
00
06
f6
0e
01
f4
02
f6
fe
e1
da
e7
dc
61
52
ee
f5
27
18
d6
d3
ef
12
18
0e
03
03
06
fd
0f
f3
04
fe
09
08
09
f6
00
04
0b
01
f5
0a
fa
fd
07
fd
0e
fd
b5
02
53
df
f0
0b
19
05
f2
cc
04
1f
0a
03
f9
f7
f0
0a
fe
04
1e
f8
01
0a
03
08
f1
0c
eb
fe
01
ff
03
03
fb
fc
03
13
11
f4
ca
f9
08
1b
21
ff
ef
04
e3
15
f8
f3
00
ff
03
04
0a
ec
01
fb
e7
0c
02
0b
ff
f0
00
e0
08
09
ff
fa
09
03
10
06
f8
e4
e7
0b
f7
fb
e0
4e
2f
f9
c5
06
36
fd
d4
da
ff
01
e8
fa
0b
01
f9
07
09
ff
0b
ec
0e
12
03
09
03
fc
fa
10
fa
f3
f0
fb
fb
0b
09
fa
