// conv1d weights int8 [8][3][40] flattened oc-major (gen_weights.py seed=20260712)
f8
01
08
fb
00
0e
0e
0f
f6
05
09
f4
f8
fc
0f
0c
03
05
0b
f9
fa
08
0a
05
fb
00
03
0a
fe
0f
06
ff
00
f8
f6
fe
0d
fb
04
0f
02
09
0c
fc
f0
f6
04
10
fd
f5
0d
fe
10
04
f8
0b
fe
f2
f0
f5
08
0f
fc
0a
fd
0b
0c
ff
0c
fe
fe
f0
f1
07
f7
04
06
f5
f6
fb
09
fe
fd
0e
f9
04
09
f4
fb
06
00
f4
02
fd
09
f2
09
02
fd
03
05
00
00
07
fc
06
0d
fb
0d
f1
0c
0a
f8
09
fa
fc
f8
00
0d
04
f4
0c
f3
fd
04
f6
04
f1
0a
07
08
f5
03
05
07
f6
0f
fa
f4
0b
f1
f6
0a
f5
0d
02
fb
0b
0c
02
fa
10
fe
0b
ff
fe
07
0c
08
05
fb
fd
09
f0
0f
03
0f
00
09
f8
0e
10
09
0a
0c
02
0a
01
0a
0f
10
f8
fe
06
10
09
08
f8
f5
06
10
0a
05
0f
f8
0f
fc
0a
fb
0e
0c
f7
10
00
f4
08
f2
fb
10
0b
03
f1
f2
f8
f8
f8
0e
0d
07
f6
fe
fd
0f
10
09
0c
f5
00
ff
fd
fc
00
0f
0e
fa
07
fa
fb
f8
0e
14
14
13
12
10
0e
0c
09
06
03
00
fd
fa
f7
f4
f2
f0
ee
ed
ec
ec
ec
ed
ee
f0
f2
f4
f7
fa
fd
00
03
06
09
0c
0e
10
12
13
14
14
14
13
12
10
0e
0c
09
06
03
00
fd
fa
f7
f4
f2
f0
ee
ed
ec
ec
ec
ed
ee
f0
f2
f4
f7
fa
fd
00
03
06
09
0c
0e
10
12
13
14
14
14
13
12
10
0e
0c
09
06
03
00
fd
fa
f7
f4
f2
f0
ee
ed
ec
ec
ec
ed
ee
f0
f2
f4
f7
fa
fd
00
03
06
09
0c
0e
10
12
13
14
14
13
10
0c
06
00
fa
f4
f0
ed
ec
ed
f0
f4
fa
00
06
0c
10
13
14
13
10
0c
06
00
fa
f4
f0
ed
ec
ed
f0
f4
fa
00
06
0c
10
13
14
13
10
0c
06
00
fa
f4
f0
ed
ec
ed
f0
f4
fa
00
06
0c
10
13
14
13
10
0c
06
00
fa
f4
f0
ed
ec
ed
f0
f4
fa
00
06
0c
10
13
14
13
10
0c
06
00
fa
f4
f0
ed
ec
ed
f0
f4
fa
00
06
0c
10
13
14
13
10
0c
06
00
fa
f4
f0
ed
ec
ed
f0
f4
fa
00
06
0c
10
13
0d
09
fa
04
f9
f0
fa
0b
f2
01
f8
05
08
f3
04
f1
f3
f7
f1
f6
0c
08
03
f3
08
01
f8
08
08
08
fa
f7
fc
03
02
fd
f1
07
f9
0f
0f
02
06
09
0e
fe
0a
fb
f8
fe
fd
02
f3
0b
f9
03
ff
ff
f7
0e
f9
f4
0b
f9
0f
fc
f4
07
fd
fa
01
05
10
07
f2
f2
08
04
09
f1
01
0e
0b
fc
06
03
f0
fb
fc
01
fc
04
0f
10
fe
f0
02
05
0b
f2
0e
04
fc
f2
0c
fd
f8
0a
01
02
08
0a
07
fc
f3
03
08
f1
05
0e
0b
f1
f1
fd
0d
fe
06
fb
06
04
0c
f3
0e
f5
f3
f2
f8
fc
01
f5
09
06
f6
fa
f8
f1
f8
f5
03
06
f6
0b
00
ff
0e
03
04
fc
0d
0c
f0
08
fa
03
f3
fe
f4
0d
0c
02
f7
fa
fc
f4
fa
f0
f4
f5
f9
fe
fa
f9
f2
f7
f1
09
f2
f4
ff
10
f4
fd
f1
ff
02
f0
01
fa
0a
f0
08
08
f1
0d
0c
fc
0b
f5
07
fc
f2
10
f2
f8
f8
03
07
f7
0e
02
03
fe
f9
08
08
02
0c
0a
f6
f7
00
f4
00
07
f3
f0
f1
00
04
f6
f7
f5
06
fc
07
fc
fb
0e
fd
05
0f
08
ff
f2
03
f9
fa
03
03
06
0f
f5
10
f2
fa
08
f8
f8
f4
fd
fc
fa
f2
f0
f1
0a
0e
08
f7
06
f2
f6
0b
0f
00
f0
03
0a
07
fe
f4
f3
0b
0b
0f
f3
f3
06
f7
f4
fb
f8
f5
f0
0e
00
f3
fa
fd
01
f6
0e
fe
0b
0d
f9
01
f9
f7
f5
fc
0e
f0
0e
01
f8
04
fa
fd
08
fa
05
0f
00
f5
07
09
00
f0
02
f6
0c
0d
01
0c
f2
09
fc
04
f7
05
0b
08
f4
0a
0f
0f
f6
f8
04
fb
03
0f
0b
07
0f
02
f6
f9
01
fc
f6
fb
05
04
08
0c
08
f8
06
f8
09
0b
01
f7
fc
f3
07
0b
00
0b
fe
06
fc
00
0f
f9
0e
01
0e
f7
0c
f6
f5
03
fb
0b
0c
fe
f5
09
0f
fe
f2
fa
06
08
0a
f2
f1
05
f3
0a
f7
08
f4
fa
0d
f8
06
fd
f4
fa
ff
07
07
fb
09
00
0b
f2
03
0d
01
0c
06
05
04
03
f5
06
09
f0
f6
06
06
f9
07
07
10
02
fa
f4
f5
07
f1
fa
0e
0a
04
fe
0a
fd
f5
0c
06
f6
f3
0b
06
