// dense weights int8 [4][120] flattened class-major (train_np.py speech_commands_v2 float=0.8461 int8=0.8538 seed=1)
0f
df
8d
a3
b6
09
08
16
27
ee
a7
da
c3
00
e9
1a
16
08
cb
ce
d7
15
0f
35
3a
e3
a8
d8
cf
2b
17
3a
19
da
9f
de
cd
04
38
1c
20
04
b0
da
af
06
0b
38
f1
d5
ca
d1
bc
1a
22
31
3b
df
a8
df
c0
ff
0a
2d
07
e8
c7
e3
ba
26
0e
27
1b
d3
d6
b9
be
03
18
1e
15
ed
ba
d5
b3
08
0b
41
46
e1
99
df
c6
06
0f
19
09
fc
b7
fc
b5
01
0f
2a
27
fa
e5
cd
c7
06
11
2a
0e
e4
a7
ee
81
f6
f3
2f
09
dd
f9
fd
f9
01
1d
ea
ff
01
0a
06
f9
eb
02
ea
fe
07
12
0e
13
f8
26
04
0b
f6
0e
08
09
0a
2d
ee
fa
f4
f1
16
14
e1
38
ea
f6
16
1d
02
00
f2
1d
e9
e7
f0
1b
f2
1f
fb
1f
fe
12
f6
05
0b
17
e6
0f
ee
fb
ff
19
17
0f
03
13
f1
f1
e8
2e
e7
07
f6
24
e1
04
f4
11
01
0a
e6
1a
05
1c
f0
ef
09
03
f8
22
e9
f3
10
1a
1c
1e
e4
15
f3
fe
01
2b
08
02
f0
11
ff
f7
0e
1d
13
1a
dc
03
03
ed
fb
1f
e0
1e
0d
fa
ea
fa
08
eb
0b
fe
13
d3
da
03
1d
14
03
15
22
ed
03
09
fa
f5
11
03
45
fc
e9
06
06
e2
0e
14
09
00
eb
f6
1b
10
0b
f9
33
f3
e3
e9
fb
06
f4
16
22
e8
f7
18
00
fc
0c
19
16
e7
e9
02
03
fd
1f
09
2b
eb
e5
f4
f1
2f
df
06
18
02
de
16
f3
ef
09
03
10
f9
fb
22
f1
ec
00
07
18
05
ea
06
0a
f4
23
0e
02
f8
e5
08
f6
25
fe
06
1a
fd
fe
15
f3
ec
30
01
f6
fc
eb
f4
0b
08
df
fa
f2
0b
fd
fe
13
f8
fe
f1
ec
e3
fb
fc
26
15
f7
fd
fb
05
1a
15
0c
fa
fc
f7
10
10
06
f4
0e
f7
0e
fe
e7
19
ff
00
27
0b
f6
ed
fa
00
09
e5
09
22
ed
ff
fe
ff
0d
17
04
f6
08
0b
ee
f8
07
fe
14
22
0a
f3
05
f4
fb
f2
f5
23
ef
f9
fd
0c
f5
0d
07
1a
e2
f1
e8
fe
17
1e
fc
e6
14
f7
fb
07
ff
ff
21
1f
f6
09
e3
fc
02
fb
08
24
0e
f0
f5
fb
14
fe
11
1e
f6
ee
dd
ee
12
