// dense weights int8 [4][120] flattened class-major (gen_weights.py seed=20260712)
03
00
fd
06
fc
05
0a
fc
02
f4
0d
fe
f8
0b
0e
f3
03
01
f0
08
03
f2
f5
f4
0e
0b
05
0a
fb
00
f0
f1
00
f2
0b
0a
f7
00
03
f7
02
f0
f9
02
fa
f8
fb
08
fc
05
07
fe
05
10
fe
03
0b
02
f6
08
fb
f1
f7
01
07
06
f8
fb
08
01
02
f2
fc
f8
01
0b
07
0b
01
04
00
0d
04
10
fd
f6
01
f7
f9
00
08
0c
02
f3
10
01
fa
00
10
0d
0c
03
f3
04
fd
f8
0a
00
00
03
fb
03
f6
08
02
10
00
f3
08
f6
06
04
0c
03
f3
0b
f5
0f
05
0a
07
f7
f7
fc
06
f7
fc
f4
f5
07
f3
fb
00
05
0f
0d
f0
fb
0a
0b
0b
0d
01
fa
fe
f9
0a
f9
10
0a
05
07
03
f9
10
0a
f8
00
0d
07
0b
f9
0e
fb
fa
f3
08
fc
0e
f2
f4
f2
07
f6
f9
01
fc
ff
f8
0e
f9
f6
04
f9
f3
06
00
05
0a
ff
f5
fa
fa
01
0b
fd
f1
f8
f8
fe
f6
02
0a
09
0f
06
fa
f9
03
fd
10
f1
f4
fb
f8
f1
f9
09
10
0b
0d
f7
0a
0a
00
01
fa
f5
f2
f1
f3
10
18
01
f9
f9
0f
00
09
f5
18
fb
fe
fb
ff
0f
fe
02
18
0f
04
fe
f1
fb
01
01
18
f7
06
f6
0b
06
0d
fe
18
f3
0e
10
fb
0f
f7
0a
18
ff
f7
f3
f0
f5
0a
04
18
0e
ff
ff
fd
f2
f6
0a
18
07
fc
0f
ff
06
0d
f5
18
f9
f2
00
fe
03
f6
0a
18
fa
ff
07
fc
0b
05
fa
18
f1
0e
07
0d
09
10
f9
18
06
10
00
f0
f3
f6
f3
18
f6
0e
fc
0e
07
05
ff
18
0e
f7
10
02
0d
ff
fb
18
0d
09
05
f6
f4
07
03
f2
18
04
04
fc
f1
0c
00
f5
18
f9
ff
f8
fa
0b
0e
f3
18
fa
0b
0a
f1
07
fd
f4
18
10
00
f9
03
0e
08
0f
18
fd
f4
0e
08
f6
f9
08
18
f4
fe
fb
0d
f4
f2
02
18
f4
fe
04
fa
fb
0b
fd
18
f9
04
01
00
06
f9
f5
18
0d
0e
0f
04
03
fa
fd
18
f1
fa
f0
06
01
05
f9
18
f3
05
f3
01
f6
00
f1
18
09
f1
03
f8
0d
00
10
18
f5
fe
04
0f
fc
f5
08
18
f5
f5
f2
0e
f6
fe
03
18
ff
f0
0c
f1
