// self-test stimulus: 90 frames x 40 int8 (train_np.py speech_commands_v2 float=0.8461 int8=0.8538 seed=1)
e1
ef
0c
0c
0d
03
0d
14
01
f1
fb
fd
0e
fa
12
fa
fc
07
f2
e7
07
0c
f9
00
21
1b
fa
07
10
0e
03
02
0e
ff
e2
f9
05
fa
f5
fa
e2
f1
08
01
ff
07
fc
fc
ec
fd
fe
f8
14
05
1f
11
f6
f7
fc
dd
f5
03
e1
0a
19
29
09
e8
09
fe
f1
fd
fb
f9
f1
fa
df
f2
f3
ee
e2
f5
00
ff
00
04
f8
ee
ed
00
f7
01
0f
19
0d
fd
03
0c
fc
f8
07
04
05
00
fe
1c
0d
08
09
03
fb
fc
f3
13
e7
ff
1b
18
ff
f1
e2
f4
05
0a
05
01
fa
f7
fd
03
ef
02
11
0f
fb
e9
f9
05
0d
07
04
ff
02
0e
eb
f4
17
e5
f1
07
fe
ee
ed
1e
f0
0d
0f
15
f5
df
e1
f6
07
0a
0f
05
04
fe
06
0f
f3
fa
f9
0e
01
fa
07
03
0b
05
f8
f4
05
05
17
08
f6
fc
f6
0f
26
02
0e
0f
09
f7
03
10
e4
f2
e1
f5
05
0b
06
07
11
09
fc
05
fd
00
11
1a
14
12
0c
fc
10
06
0e
03
f6
eb
0c
fa
06
fb
11
fe
01
04
05
1e
12
0b
fe
fe
f7
02
df
f7
0b
06
03
0e
17
08
01
0a
fd
fd
fe
ff
10
0f
fa
fc
07
ff
02
08
01
02
0f
08
f4
f8
0e
05
07
03
f3
0c
f2
e8
0b
10
e5
eb
e0
f8
08
07
13
17
1c
05
0e
10
05
f8
03
05
05
0a
04
15
0f
e3
ff
08
fa
f3
0a
fe
05
02
0a
05
ee
f0
05
f2
f8
0a
11
12
fd
f7
e0
f9
03
07
0f
0c
12
11
09
0c
fe
f9
02
0b
10
0f
1a
0e
07
05
e9
f9
00
03
05
fa
07
f7
f8
f8
04
fa
f8
f9
fa
f6
0e
05
f9
f9
df
fa
09
07
0a
05
04
03
fe
00
08
fd
f1
fa
fd
0b
0d
13
0d
08
ef
f0
07
06
fa
f7
00
10
05
e4
fc
0c
0b
04
fa
e2
f3
0a
f3
ea
e0
f7
09
08
0f
0c
07
06
00
05
06
fb
06
0a
09
07
ef
0b
1c
fd
ea
06
03
f5
03
e8
02
24
1e
0a
f2
e6
0c
0c
ff
02
fe
12
06
f9
e1
f7
06
09
09
02
0b
02
f5
fe
fe
09
18
07
fb
13
fd
f8
04
0c
0a
06
10
1f
12
f9
f5
05
0e
15
0d
f8
fe
fe
ec
e7
02
0d
ed
f0
e2
f7
02
fb
06
f9
ff
fa
07
fd
f9
15
20
0d
f8
04
01
01
00
02
e9
f9
21
0e
06
0c
12
01
eb
fa
0d
1e
06
fb
05
fc
05
06
df
ee
e1
f7
0c
0d
08
08
fc
f9
06
06
04
0c
0f
0e
08
08
18
fc
fd
fd
03
0d
0c
06
ff
0a
fc
f6
ef
f5
f0
08
fc
f9
f7
10
ea
ee
f4
13
e0
fb
0a
ff
06
03
fa
f7
0a
12
09
15
09
0e
1b
08
ee
d9
ed
f5
0c
08
12
03
05
03
f4
04
0f
00
10
06
f8
f1
f1
e6
f6
0d
10
ec
e1
f5
07
07
09
f9
ef
ed
fd
12
05
f8
f9
fc
fb
fe
eb
ed
fb
03
06
fe
19
12
0f
11
01
ff
06
01
09
0c
ff
e2
f5
20
19
f6
eb
22
e2
f5
00
01
09
f7
f6
01
0f
0e
13
fb
03
fd
f0
06
15
f6
01
10
ff
f6
13
12
fa
01
ef
03
02
ed
04
01
06
df
07
10
1a
0a
e3
ea
e2
f5
fd
fc
01
f9
f5
04
17
0c
fc
e8
fd
0a
f4
15
09
f6
10
14
f2
fd
f5
e8
03
04
0e
05
06
f8
e3
fb
ee
f8
11
19
06
fe
05
f7
e1
f6
0b
fe
06
02
fb
0f
03
06
f4
f0
f4
0c
00
0d
ed
ec
fd
04
06
08
0b
f3
06
0b
03
f2
fb
10
ed
f6
f4
02
07
05
fb
00
06
0d
e1
f2
0b
f7
ff
f5
09
0d
fb
04
fc
02
01
0e
fc
08
02
16
0d
08
0a
19
20
18
12
f7
16
04
ef
fc
ff
06
07
fb
ea
26
06
0c
f6
05
e1
f3
07
01
03
04
05
0b
f6
f4
01
fe
f6
fd
fc
0e
10
19
02
fe
03
ea
ee
da
f8
fe
ec
f7
f6
10
20
ef
f7
06
0a
0f
03
04
ee
0e
e2
f4
07
04
0a
06
05
07
f8
f6
fa
0a
07
07
0f
11
0f
19
01
f0
fb
07
0f
0d
03
08
fe
f5
e2
f4
f9
0e
f8
f1
13
f5
e8
fe
fb
07
e1
f6
05
fe
00
07
01
f8
ef
ec
f4
01
07
02
11
10
07
0f
01
e3
05
15
05
06
07
0c
09
04
17
03
fb
fc
02
06
16
11
08
0b
ef
19
e2
f2
06
05
0b
06
04
08
ef
e7
00
13
0c
1c
09
0d
10
1a
00
fa
ff
f8
f1
fa
e6
fe
13
f3
e9
02
10
14
1e
f0
ee
fa
16
07
0f
06
e2
f0
05
0a
04
fe
01
0b
f1
f2
08
10
10
0e
11
19
07
19
f1
ec
f8
04
fa
06
e7
02
18
ef
fb
eb
ee
f0
fd
12
17
0a
03
f9
0c
0a
e2
f3
05
08
0a
fb
fd
06
08
00
fc
07
01
fc
09
11
f1
fe
fb
e6
fd
fe
f6
f7
02
0a
ff
07
fe
e9
0f
f0
fa
0e
13
08
09
f4
13
16
e1
f5
00
03
09
ff
03
08
f8
0f
04
0f
fb
ef
05
1a
09
08
0c
dc
ee
f5
fb
f6
f1
f9
f8
02
f9
f8
14
02
fa
08
0a
11
20
fe
11
08
e1
f3
02
0c
07
f9
04
f6
f3
0a
16
10
00
f0
e3
08
06
eb
0c
e3
03
ff
f6
f1
07
14
02
24
01
15
1f
f0
f8
0a
0f
11
07
08
f5
fb
e8
07
22
2a
16
ff
08
f3
ff
07
f7
09
13
1a
04
f9
ee
ef
ec
04
08
f5
05
01
fa
07
f4
12
1b
ec
09
fa
15
0d
fc
f2
ff
fa
f0
02
f8
1c
1b
41
07
e8
0a
f6
05
f6
ea
1e
01
ec
fb
11
0c
e3
ef
16
e7
f1
02
ed
f7
f7
ed
04
0a
f2
14
05
f4
12
fc
e3
0e
0f
f7
1a
03
1e
16
5d
f7
cf
fe
f5
1b
f3
d5
27
04
fc
ec
13
1b
d1
f3
36
e0
ec
f7
eb
fe
03
e1
04
1d
f7
08
0e
f3
03
f4
ee
24
0f
e1
ff
05
1b
0f
5e
fc
ce
02
ec
12
fa
e0
33
f7
0f
f2
24
21
f4
f2
1e
e2
f4
04
fb
05
ff
f8
00
f0
da
00
1c
fb
08
e5
ce
fb
17
ee
01
0b
18
0d
63
fe
cd
f6
f1
1c
ee
da
2c
06
20
e4
14
18
e9
e0
16
ec
ec
04
f0
06
18
00
fa
f9
00
02
f8
da
12
eb
05
ee
fb
ea
09
0e
18
00
60
fc
ce
ef
ed
28
f5
de
27
fe
3a
e1
08
17
f1
eb
1e
f4
ea
fc
ff
f8
15
fe
f3
ff
01
fb
f0
f3
f3
f7
f4
e9
e1
e0
17
12
15
f9
5e
f7
d1
e8
eb
30
fb
e0
2a
e8
4a
db
09
02
02
dc
15
07
fa
f5
00
fa
0a
ff
f2
f8
f6
04
07
f4
04
e1
01
de
ff
d0
fd
15
11
f7
53
fa
d1
e6
e9
2c
fc
e7
2c
ee
4c
df
03
ff
fb
db
18
19
01
f8
ff
0c
fa
ff
f0
fc
f4
fd
09
fa
06
df
f8
f9
02
d0
fe
16
11
f6
4d
fa
cf
e0
ea
31
fc
ee
29
ed
4d
e1
02
01
fb
d0
09
20
07
fe
00
0c
01
f4
f9
fa
f6
f6
03
05
ef
f3
05
e3
01
dd
0b
17
12
f5
48
f5
d3
db
f0
34
02
f4
1d
e6
47
e3
00
ef
0a
c7
0c
1c
17
fa
02
0c
0f
f8
fb
e5
05
ea
0d
e8
ea
04
0a
f1
ef
e4
13
18
13
f3
40
f2
d9
e2
f4
33
04
fa
1a
d7
48
df
fe
f1
0e
d9
04
17
12
fa
03
0a
1c
f4
02
dd
ff
fc
eb
f6
eb
fd
0f
e4
0a
da
0b
18
14
f1
38
f1
db
e6
f6
37
01
fc
11
d3
3f
e0
01
fb
0b
e2
00
16
0e
fb
f9
07
17
f7
0c
ec
fe
0a
eb
e7
ea
fe
f4
f9
19
e1
07
18
15
ee
2f
f2
e9
e3
eb
34
09
ff
0a
d3
3b
db
fa
ff
19
e5
f5
1a
0d
fa
02
f7
16
02
0a
fd
08
fa
ff
ed
eb
f7
f1
08
1d
f3
05
19
14
ed
2b
f0
ec
e4
ef
31
09
03
02
cd
39
dd
07
e6
14
e8
0a
11
0e
03
f8
07
08
0c
07
f6
0b
06
0d
ea
ef
f8
f6
08
16
f5
f9
19
15
ef
29
e8
ed
e4
f9
38
f8
06
fd
ce
34
ea
06
d4
1e
e5
0c
0c
0c
08
06
0e
f5
0a
0b
fe
06
ff
16
ef
f4
f3
06
00
15
f5
00
19
16
ef
23
ee
f2
e2
fd
36
f6
07
fd
cb
3d
e3
00
dd
1b
f4
fe
0c
09
09
f8
15
0d
0c
f7
e6
0a
0f
23
ed
f7
f8
e9
18
0d
ed
f8
18
19
ec
20
eb
f8
e1
01
2d
f5
13
fb
c8
41
e3
fc
e2
17
00
f4
12
05
02
01
10
0d
10
f0
dd
0e
1d
1d
02
f8
f6
f5
03
09
f4
fd
17
1a
ec
1f
e9
f7
e6
00
2b
fb
19
fa
cb
48
e6
f8
e1
1e
fb
ed
15
05
06
08
04
00
09
01
e5
f7
11
32
03
0b
f3
ea
0a
fa
fc
22
17
19
ee
1d
e7
fa
e8
02
2c
f6
12
f5
d5
41
f1
ef
e6
20
f7
00
09
fe
0b
07
00
0a
08
fe
f2
f3
01
43
f1
22
06
d6
1f
f5
00
0b
16
18
f1
18
f0
f8
f3
fd
2d
f5
09
f2
cd
4a
ef
fc
dc
28
e8
07
0b
fb
f9
0a
fb
18
07
17
e0
0d
f8
28
07
05
08
ed
27
02
fc
ea
16
17
f4
15
f6
fc
f1
fd
33
ff
05
f5
cd
46
ee
fb
de
1b
de
07
16
e7
05
16
f4
1a
04
09
ee
0a
04
2d
02
ff
01
f6
1d
fd
f8
d5
14
16
ec
1c
fd
0b
f8
fb
2e
fc
09
f9
cf
4c
e7
f4
e6
19
de
12
17
e1
17
f8
f8
01
0c
12
07
f9
03
1c
fd
01
f1
ef
20
ff
03
f7
12
18
f2
1d
05
f9
00
09
26
00
16
ec
d1
4b
f4
f7
e7
16
d0
07
11
01
1b
eb
f8
fd
07
24
f3
0b
12
f7
0f
df
f2
ff
03
fd
15
07
10
0e
00
1f
0a
0c
f4
fe
23
00
1e
fc
d8
49
fb
fa
df
19
e1
0a
fa
f5
23
e9
0e
f6
00
f7
e6
0f
14
06
14
f4
fc
ea
10
16
11
f2
0c
11
ff
1e
04
09
07
09
1f
fd
1e
fc
ee
48
ee
e9
f0
11
e9
07
02
ff
13
f8
fe
f7
18
11
d9
1d
24
f2
ff
f4
01
eb
19
06
08
f5
0b
0d
10
1a
f9
1b
f8
11
18
07
02
0f
ef
40
ef
dd
08
04
d3
0c
13
02
09
f8
0b
e5
15
08
e1
1f
1f
01
f6
e6
05
ee
f2
e7
e9
fa
0b
fa
20
10
fd
29
de
0a
32
0a
ff
1e
09
24
ea
ee
f8
0a
d7
03
eb
0a
e7
eb
19
0a
f2
11
f0
25
f2
09
14
f9
f2
eb
08
f5
f0
07
0c
e8
23
03
fc
21
e0
08
21
0a
fd
1c
00
23
f2
04
01
f9
eb
0a
00
22
f3
e7
f5
ee
0b
0d
e5
08
c9
fd
26
04
cf
f9
1d
15
f0
19
0c
e3
20
fd
f3
17
de
f5
19
01
fc
1c
fa
2e
ed
f5
fc
ee
d3
1d
f4
10
fd
fe
f1
e2
09
05
d9
0a
eb
fc
00
14
0a
fb
14
1d
f5
17
08
dd
1c
f9
ed
1a
de
fd
18
08
05
20
f0
26
e4
03
f4
f8
f7
23
03
19
03
0a
08
f3
f3
03
d6
08
01
00
ff
12
ff
e3
04
16
03
f1
07
dc
23
02
ed
1b
dc
01
08
fe
0c
18
ea
28
ef
00
00
fc
f1
22
f8
0c
fa
ed
0b
fc
fc
20
d0
09
18
ff
0e
f7
07
11
13
0c
f6
02
06
e0
29
0a
fa
18
f2
1b
1e
08
fd
14
f3
08
dc
ee
e9
ef
f5
16
f7
07
10
02
ff
eb
f4
1e
04
0e
ec
1b
04
fb
ec
ec
21
fe
e0
ff
04
de
32
15
fc
1c
e7
15
1c
08
f7
15
ff
17
d3
e6
e8
e5
ec
27
fa
07
1e
18
0f
10
09
04
e5
17
04
0a
ed
fe
05
e6
0f
09
cf
10
03
e0
2e
12
fe
26
e9
fb
0c
0d
f9
10
f5
1a
cd
e9
f7
e7
ed
37
f4
fa
0d
05
06
0a
f1
0c
f1
0c
15
23
ed
0c
fd
cf
07
0f
e7
2a
02
dc
2e
10
01
22
e7
fd
10
fe
fa
fc
f1
27
e3
f5
05
ec
f0
31
f8
fd
01
09
0d
0c
ff
0a
02
20
0d
0a
f8
f7
fb
13
ed
0a
14
0c
01
d8
30
15
0a
2a
f2
fb
0e
0d
0d
0d
e5
2a
e3
ed
15
ee
df
0b
ec
11
09
0b
ef
f5
12
ff
10
21
0c
09
f8
eb
d4
e8
fc
0a
fa
f5
01
d7
2a
14
0b
28
ea
01
17
fd
f3
f9
ea
2b
ed
ea
10
00
d1
08
00
02
12
09
0d
04
01
09
05
10
e7
01
ea
10
09
fa
fc
fe
fc
e4
00
d6
26
14
09
21
e8
04
05
09
07
0c
e4
2a
e5
ef
02
08
c3
18
fb
eb
16
16
fc
27
0d
0a
02
f3
ea
11
fa
0b
09
eb
07
e4
ed
11
fe
d4
29
16
01
28
e9
06
0b
fe
19
0c
f4
2c
fc
f8
ff
01
d2
1f
02
e5
0b
10
f9
20
ef
1f
01
fa
ff
08
03
ef
19
f3
fb
02
d5
0c
fe
d4
27
15
f8
22
f4
07
08
fd
02
09
e1
1e
eb
f5
1b
f8
e0
1e
03
e9
0f
0d
f6
24
ef
12
13
fd
f6
02
f2
03
0d
f1
0f
f0
cf
1a
fc
ce
25
1c
ff
1a
e1
f9
0c
1a
16
0e
f7
2e
e7
08
fb
f4
d3
17
f6
08
f8
0e
17
19
f1
eb
0c
16
e6
f6
05
05
0e
dd
0d
fd
eb
32
fc
d0
28
16
f9
21
f1
02
0e
11
fa
0d
fb
29
e6
09
05
04
e6
0a
f2
06
ff
e9
00
16
f7
01
f3
12
f9
09
f6
0f
15
e6
0e
f4
d7
12
fc
cd
1a
10
fc
1d
ed
03
18
09
f0
0f
f5
1e
e3
0a
01
ee
e8
1e
f5
10
f1
e5
f0
fb
07
09
04
1a
fa
16
f2
04
1f
d4
00
f2
f0
07
f9
cb
11
07
f0
05
ca
0c
20
14
05
03
03
29
d1
ed
01
00
02
24
01
0f
f6
03
f6
05
04
fc
fd
37
eb
14
11
08
0d
00
f9
ee
f4
ec
f8
ca
0e
0a
ef
07
cb
1d
23
14
09
12
fa
0e
ec
e8
05
0a
ea
1f
02
0b
03
11
11
02
00
f6
d5
0c
ef
0f
0b
14
0f
fa
02
f6
e8
0d
f8
d2
10
0b
f2
14
b9
0d
2a
02
0d
29
0a
17
dd
ec
e6
ea
00
1f
e3
1d
22
ff
fc
19
17
fc
ec
27
e5
fe
09
fe
07
01
23
fe
f8
0f
f6
d4
07
10
f2
13
be
07
31
fe
ec
1b
14
24
e9
fe
ee
f4
f4
16
fb
1c
fd
05
04
2b
0f
fa
f5
2f
ea
03
ed
0b
1d
f7
08
f8
fb
07
f5
da
03
0b
f6
19
ba
f1
29
f1
eb
25
03
1e
e7
e6
f9
01
e6
16
fe
12
e1
0d
22
33
05
d8
f7
07
e2
26
fc
20
19
f0
11
11
f8
03
f4
df
04
05
ee
1d
b3
f9
29
f8
f4
22
fc
1c
ed
f6
01
01
f5
0f
fb
17
01
07
10
38
18
e3
fb
0f
e0
0d
e7
0c
09
05
0d
ec
fb
f4
f1
e0
fd
04
ee
1a
c2
f9
28
f7
ed
0e
0b
2d
fc
f4
07
09
01
33
00
fc
e5
f0
07
0e
09
de
10
22
fd
14
ed
fd
17
fc
14
fc
10
ef
f1
df
ff
fe
db
28
bd
01
19
07
f6
03
ff
2c
0d
f9
0a
15
17
36
10
fe
e1
f5
27
fa
0d
e1
13
06
18
13
e5
10
23
e6
f4
ff
28
f6
f0
e4
fa
ff
e8
20
c4
f7
31
07
fc
13
08
22
f2
e0
fe
00
04
19
0a
0b
f3
0a
13
f0
05
e8
10
07
f6
24
ec
ec
14
f3
fb
f2
12
d1
ee
ec
fb
f8
e7
17
bd
e5
22
0c
13
29
0b
23
fd
ee
f4
db
f7
25
20
12
e8
f4
20
0f
19
e6
16
fe
e0
00
ef
0b
03
0f
2c
df
fa
cc
ed
ef
f7
ef
e2
15
ca
ef
24
09
16
14
04
2b
00
fd
f0
e2
09
11
13
28
f0
0d
2e
fa
16
e7
33
fe
f8
08
e7
06
f8
f8
14
f1
fd
05
ea
ef
fa
fa
ea
12
d1
f9
29
00
1b
12
f6
0e
e5
04
0e
f1
15
1d
00
2d
ec
0f
22
fc
18
e5
16
f7
fb
20
f6
03
f9
f5
0b
d2
03
ed
e9
ee
fa
f4
e6
1a
d9
eb
27
08
23
1b
f9
1e
fd
f3
fe
ea
08
2b
2d
21
fa
0f
16
f1
fa
f0
24
e9
f1
0f
e8
12
fe
f9
03
ef
03
0a
e8
ef
f9
f8
e7
15
df
ee
1b
04
11
08
e2
07
e9
ee
01
e6
f8
0c
0b
08
e5
fc
07
04
e5
eb
1f
e5
e3
16
08
1b
f8
08
22
f2
f8
00
e6
f3
07
f6
e3
03
de
e3
0c
fe
1c
22
0c
1f
e8
f3
ee
e1
06
1b
0f
fe
f5
ef
05
0e
02
02
1c
f7
e3
01
f4
f4
e7
0c
f1
fd
df
19
e5
f5
0c
fa
e5
01
e1
e8
06
fa
08
26
08
11
f2
f5
ef
dd
f6
0e
04
f1
f0
fc
12
08
08
1a
48
fa
f7
01
01
f4
03
0e
01
fc
e6
f1
e4
f4
0c
fe
ed
ff
ed
fa
08
07
0f
29
14
15
f4
ed
ee
f4
f1
0b
1d
f7
ed
f5
15
0f
04
06
0a
ed
eb
fa
ff
ef
f8
10
04
f1
fc
08
e3
f5
0a
f6
ec
00
f5
f2
03
00
03
08
04
0c
ea
e2
e8
fb
03
0e
0d
07
16
ff
fe
fe
09
03
ed
f7
fd
f1
00
12
0b
04
e8
f7
fe
fe
e4
f3
ff
f0
f3
f9
ee
f1
fa
0e
19
1f
04
12
f7
fb
03
01
14
09
1d
2e
27
08
09
f3
fc
eb
0b
e9
d8
e5
04
e6
fa
fd
f0
0f
0a
10
